h e
  t
  a
  s
  w
n d
 t he
e d
  b
 t o
 a nd
  h
  f
i n
  T
 w a
r e
i t
o u
  d
  l
  c
  p
a y
  m
e r
 wa s
o m
 T he
  he
i s
a r
  n
o n
l l
 s a
i m
i d
 h a
  g
  S
a t
in g
o t
a n
e n
l e
o r
i r
a m
e t
  H
  it
 t h
 The y
i g
i l
  in
 p l
 H e
  "
o w
r i
v er
u t
e s
 pl ay
  u
it h
 w ith
p p
 sa id
  o
  y
  r
o o
 d ay
O n
 he r
k ed
 S he
  I
 b e
 s t
l d
c e
c k
 h is
 T im
  e
 y ou
n t
k e
 b ig
ver y
 ha pp
e nd
u n
  on
v e
a ll
  L
il y
 the y
ri end
 f riend
 n ot
 l i
 d o
he r
 w e
a d
 wa nt
 ha d
 o f
 u p
  M
it t
  B
s t
 happ y
s e
' s
en t
On e
ou ld
 th at
 sa w
  very
 f or
 m om
 s h
 s o
itt le
 s he
 l ittle
c h
  k
. "
im e
ou nd
 n am
 t ime
 the re
 n e
 s m
 L ily
 nam ed
 we re
T he
 want ed
 b o
 b ut
! "
 T om
 friend s
e l
v ed
  is
ir d
ou t
h t
 a n
 b ird
u g
 I t
a l
om e
 to o
 w h
l p
id e
On ce
 he lp
 w ent
a ke
u e
 l oo
r y
 l o
 a ll
t er
 up on
  A
  j
o re
 a s
 to y
 d id
 f un
g et
r a
i nd
i ll
  re
am e
 a t
get her
 b a
 s e
u r
l y
 to gether
 c at
 do g
 t re
oo d
t ed
 c ould
i c
e c
ar k
 b all
 the ir
 c an
 a re
 r o
w ay
a x
 the m
 k n
ar d
? "
u m
 f r
 play ed
 l e
 h im
 g ir
 g o
' t
 gir l
he d
 sa d
he n
ot her
 m an
a in
u l
m y
 ha ve
  out
 c l
 M ax
 st ar
 tre e
h ing
 bo y
 S ue
 ba ck
 lo ved
 f ound
ou g
 loo ked
 s c
on e
a re
 s p
 p ark
ow n
f ul
 m e
 li ke
 c ar
 be c
om et
 s ay
 li ked
s ide
o p
el t
 w ould
 l a
r ound
  W
on g
 se e
 f elt
  One
i ce
 f a
 B ut
Y ou
 star ted
 s omet
 n o
ig ht
e ll
 S am
  other
 as ked
 m ake
 a l
ar ed
 c ame
o b
 sm all
oug ht
 ne w
il ed
 B en
 g ood
ou se
 a g
ing s
es t
ad e
 sm iled
 a way
ri ed
 somet hing
oo k
i a
u c
 b r
 fr om
a g
 p ut
 m ade
 wh at
s s
 f l
 w or
 e x
 c o
 play ing
en ed
 f ind
 th ought
ar n
a ch
 e very
 r an
 h ome
d d
 wa l
t y
  J
p ot
 say s
 d own
a k
 la ug
 s ome
i le
u s
 w ill
, "
  F
 bo x
 sc ared
u ck
 le arn
i f
 p r
 ag ain
re t
n y
 h ouse
 a round
 loo k
u re
ou d
 toy s
 b l
 f e
u st
  You
 S pot
i ck
 too k
 s un
 w hen
 s w
e p
uc y
 m y
 th ings
 you r
b le
 the n
um p
 c h
 M ia
 li ved
i e
  D
a ve
q u
 kn e
 kn ow
pp ed
ot h
is h
an k
 l ot
 wh o
T h
 t ried
 g et
L ily
nd er
a p
it ed
 d ec
u ch
 L ucy
  v
is t
a s
T im
 p ret
 kne w
 g ot
 r ed
 h ug
 in t
 man y
 m ore
 an y
u se
 o p
 p o
 p e
 a b
all y
 M om
ou s
er s
is e
 B ob
f ter
 learn ed
 d ad
 ab out
an t
 p ic
 dec id
 ex c
 wa ter
 c are
a use
 b est
i ve
 ro om
 decid ed
The y
u dd
 e at
 g re
 laug hed
es s
a ce
� �
 j ump
it e
 bec ame
n a
 bec ause
 S o
  ke
ur p
 u n
way s
 r un
 b oth
 sh ow
 g ra
 al ways
in k
 th is
T om
 int o
 fe el
 A nd
f e
Y es
 n ice
 out side
  E
o g
 on e
 s l
 exc ited
u ll
 h o
 m o
 ro ck
 to w
 s or
 s k
 in side
 t a
ar a
 g ave
 fa st
 e ach
 to ld
 a m
 l ong
 pret ty
urp r
ou r
 t r
W h
 s urpr
le w
  or
 u nder
 st r
 th an
im al
 an imal
 ne ed
in y
g ed
 h ow
 fl ow
 sor ry
n na
B ut
 m uch
v en
 ha nd
a se
et ter
r o
ur n
 t ry
is ed
 cl o
 W e
b y
 o ld
 did n
 wal k
 animal s
 wal ked
ur t
a ck
 t ake
 happ ened
 j ust
 ne ar
 c le
ig h
c hed
 k ind
he re
g e
 sk y
 wa t
C an
f t
 be ar
p l
 f i
 f ood
 it s
 f ly
 f ish
 c a
f f
 l ist
 b etter
 d an
 u s
 sh are
at e
  en
 l et
 st or
in e
i on
 b ook
op le
  ide
g ry
 f lew
  if
v ing
v es
 ide a

 

 t w
 he ard
r om
 b ug
 pe ople
 H is
p ec
 T h
re am
 d on
 c om
 b y
b b
 lot s
m ore
 any more
i al
M om
 co l
 care ful
 sp ec
 spec ial
 ne ver
r m
Th ank
 do ll
udd en
 lo ve
 h igh
 t urn
or t
  qu
 m ag
 h urt
 cle an
l f
e x
 b u
 E very
udden ly
o ll
 col or
 e ven
 pic ked
 g l
 e nd
 c ake
 h ard
L et
 c u
 b ad
 f ar
 w ind
 g r
 S ara
 than ked
 l oud
 f ore
 c ome
e m
 hug ged
 pr oud
 op ened
 do or
u ff
il d
 surpr ised
  K
 re ad
 g round
 H er
c t
 o ver
 a fter
 The n
  im
' m
 sh iny
 A my
pec ted
 t al
 f am
 tow n
 sa fe
 p a
 A nna
oo l
ex pected
 un expected
 m ak
im b
 fr og
 cl imb
N o
 s qu
 jump ed
k ay
 e ver
 F rom
 st ill
 c all
um my
 wa y
 k id
A s
ag e
itt y
 W hen
b er
 sm ile
b e
le ase
 of f
 t e
 mag ic
o ck
 st ick
ard en
 t ra
 g arden
 ha t
 I n
 c he
 p ar
 g ive
or n
 kid s
un ny
 s n
I t
 u nt
i z
a nd
 fam ily
 stor y
 le a
 d ra
a ut
 unt il
 every one
 sh ould
x t
 r a
 be aut
 list en
 ne xt
 a pp
t ure
 n ow
  P
an e
oug h
 st ay
 fore st
 str ong
d y
 c ry
o y
 r ain
uff y
 bl ue
 gre at
re l
i ful
 op en
 beaut iful
is s
 sl ide
 flow ers
 im p
 clo s
  R
 happ ily
 th ink
o on
 wh ile
 as k
p t
he s
 br o
 show ed
 m et
 b re
N ow
 so ft
 an gry
 wor k
 ke ep
 call ed
 K itty
H e
 ha s
 tr uck
 wat ch
 help ed
s o
ay be
m a
 al so
W hen
 pic ture
 gre en
ir st
 y ummy
 S ally
re e
 st o
 re m
 pl ace
i p
 W h
 w here
 hand s
re ss
l uffy
ir rel
 L et
dd ed
a z
le s
 squ irrel
 tw o
ar y
 wa rm
 lo st
 at e
 g ame
 b ed
g er
 d e
 be ing
L ook
 f ell
Th at
 st ore
 b ra
i es
 he ar
u it
f ore
 car s
The n
ir ed
 w o
ill y
 so on
  C
 cat ch
 could n
 J o
 bl ock
 p ull
se lf
 no ise
t h
 b unny
 sto pped
u d
Wh at
 tal k
 no dded
an ge
 be fore
 F luffy
 ke pt
 d r
 me an
 p us
 a d
 p ain
 flow er
 bo at
H i
W e
 w r
� �
re w
le ep
is hed
 t ired
 bird s
g an
  our
 li on
 sa t
 e y
 f irst
� �
 r ace
 do es
v ent
 m ess
  Now
 t ri
 m ouse
 d if
  G
 s ound
 th r
or al
 y ell
 other s
 f in
j oy
h n
 ha ving
 fa ce
t hing
 u se
 bra ve
im es
B en
 be h
 b us
 sun ny
 po nd
a ir
a ble
 v o
 he ad
 ho le
 imp ort
 D ad
 sa nd
 r ight
 wa it
 to p
 ex pl
 h op
 fl o
re ed
 en joy
ow l
ell o
H ello
 m oral
 import ant
 ey es
 cu ri
 block s
t ing
 us ed
 t all
 o kay
 d uck
i ed
d ay
 look ing
 cl a
em ber
 s ing
 curi ous
 co ld
 ba g
 sw e
ug ht
 br ight
n ing
 sh ared
 k it
 h ill
 dra w
 D o
 s leep
 c on
  Can
c hen
 re al
 kit chen
S he
 par ty
 fun ny
bb it
at h
 wor ked
 mak ing
fe re
 y ard
 p ick
 j o
 fi x
 fi re
 dif fere
oll ow
o c
A fter
 mom my
 m on
 c ook
 ag reed
 th ing
 go ing
 friend ly
l ed
c ed
  ice
 p u
 p lease
A t
 rem ember
is y
ic y
 f o
 Th is
W ow
 tre es
 ta st
  “
e ar
 f ollow
 re st
 dan ce
 be gan
 walk ing
 vo ice
 lea ves
 far m
 differe nt
  own
b o
 c ra
ar ing
 turn ed
 laug h
 gra ss
 g i
 fa v
oll y
 st op
 he re
 for g
 clos er
  z
nd ma
S am
 t ell
� �
o om
in s
 surpr ise
D on
 h id
 feel ing
 color s
k es
M ax
 p ap
 need ed
 F in
i ous
 sh out
 beh ind
Wh y
 wat ched
  ri
 A s
A nna
 sw ing
 mo ve
 fr uit
S ara
 wor ry
 flo or
 s ong
ig n
 ta il
 se es
 l ad
 d is
a ched
 ta ble
il a
S uddenly
 w ood
 t ak
 swe et
 ra bbit
 h ot
 d ark
 c ried
z y
or ite
n g
 read y
 fav orite
 c ut
 re pl
 n ight
 ro ll
 a c
udd y
ec t
 pr om
i ke
 g one
by e
 pret end
 h un
 f ull
 c re
 M r
 J ack
er ed
 look s
 an other
 ad vent
a il
 ho ld
 yell ow
 sw im
 mom ent
 J ane
ot t
 to uch
k en
 re ached
 d ress
 d ir
 sh o
 pl an
 cl oud
 be l
at her
 Th at
 pap er
 help ing
 ha ir
 but ter
S ue
a isy
 Bob o
S o
 bro ken
 br other
 book s
 st uck
 on ly
 A ll
ou nt
ic ed
 sm ell
 qu ick
 clo se
 c ream
 am az
pp y
at ion
 th ank
 l ess
 S uddenly
 hun gry
 ch ild
m an
c le
 repl ied
 m at
 bre ak
w here
el y
 Every one
ke y
a v
J o
 mak es
 gl ad
r ed
i ent
 sn ow
 advent ure
 wo nder
 re ach
 m ar
 good bye
 w et
 st e
 somet imes
 m us
 do ing
 d el
 climb ed
 c r
 c ool
 al one
as ure
 ca st
u b
 pull ed
 g ent
 ba by
uck y
q ue
a c
 try ing
 com ing
nt s
 run ning
 p er
 list ened
 cla pped
o l
 sw am
 sl ow
 p en
 fa ir
 color ful
 wh y
 t iny
ou p
at er
 bu y
 a r
 B uddy
a ss
 m ight
 Tim my
bb ed
a st
O kay
 tra in
 f all
 wa ll
M ia
 quick ly
 g if
 d ream
 d ri
 b ott
one y
i x
 under st
 nam e
 he ld
out h
av y
 wa ved
 tow er
 th rew
 m outh
 la nd
 gr ow
 app le
p e
 b it
H er
 le ft
 butter f
 be en
s h
 not iced
 less on
 enjoy ed
 Mom my
 wind ow
 s et
 d in
 a rm
ct or
am es
 m iss
 f ight
 ball oon
 A fter
ri es
 shout ed
 p i
 l ight
 d one
Th is
 wor d
 j ob
 any thing
 D aisy
d er
 wa g
 w in
 sp ot
 s ure
 pus hed
 bu ild
ro om
I n
 lad y
 jo in
 cu p
 se en
 ke y
 d ro
 li kes
 pr in
 a ir
M aybe
' re
 wood s
 thr ough
 picture s
 j u
st er
 sc ary
 dan ced
ow er
 per f
 mus ic
 cast le
 Jo e
 gra bbed
 cre at
 com p
 pain t
 con t
ar t
 p at
 not e
 m ix
 follow ed
 b lew
 ch air
 sp l
 gif t
 expl ore
 M aybe
le ss
L ucy
 wr ong
 m ust
 he avy
 big ger
 The re
r ot
n er
O h
D o
 butterf ly
as h
 want s
 s illy
 n est
 mon key
 ho pped
 remember ed
 p ie
 w on
 s it
 gra ndma
z z
 tre at
 stay ed
 L ila
 r ide
 Wh at
l c
 wor ld
 turn s
 star t
 sh ap
 s is
 re l
 Jo hn
Jo hn
 wh ite
 w ished
 se c
 po in
 g ames
  O
 wa ited
 w ise
 tal ked
 s ign
 r ound
 f ill
 every where
 ca nd
 b ar
u p
ck s
an ce
 t ight
 sis ter
 some one
 p ink
 lea f
 po l
 bro ke
 br ought
 ask s
 So on
  owl
on ely
 tre asure
 think s
 sh aring
 s na
 l onely
 b ike
 pl ant
 p ot
 p are
z e
 y ear
 th ree
 rock s
 him self
 gi ant
e y
bo ard
 h it
 In side
ie ld
u ed
e ad
an g
 v is
 underst and
 J en
t on
B ob
 pa w
 p ig
 b or
r ow
ll a
i pp
am p
 se a
 s oup
 m other
 fly ing
o s
itt en
iz ed
i et
b ble
 thr ow
 re s
 prom ised
 g u
 dir ty
 bl ack
 b ite
us ed
m b
itt ing
 qu iet
 p h
 or ange
 forg ot
 fast er
 doll s
 din ner
 cry ing
 be e
or m
or d
 e l
 dr ink
 Mom o
 B l
ull y
re n
ec es
 str ange
 pi eces
 pare nts
 happ en
 el se
 eat ing
 del ic
 d ry
H is
" .
 w ish
 sec ret
 roll ed
ro ss
ou n
ot hes
f ully
 run s
 de ep
 cl othes
 ba s
k et
 sp icy
 h ide
 f ree
 bas ket
 sc ream
 cont in
 but ton
 bott le
 Tom my
ump y
 smile s
 sh in
 re ally
 gent le
 fo x
 dra g
c ess
 w he
 vis it
 sm art
 sh r
 p et
 n ap
 we ll
 we lc
 tast y
 pu ppy
 m ail
 ju ice
 bl ank
S pot
 sa l
 laug hing
 do ctor
 blank et
 T o
 A t
i ver
a ught
Wh ile
 st and
 s itting
 f ur
 contin ued
 br an
 b owl
 app les
 she ll
 clos ed
im i
g y
 y es
 w ings
 sw ings
 se ar
 s ide
 fin ished
 farm er
 c ount
 Bl ue
 perf ect
 m um
 k ing
 drag on
 child ren
 c orn
 E m
un ch
st ead
pp ing
orn ing
c o
 pa ss
 m orning
 k ite
 k iss
 at t
 amaz ing
is es
 ri ver
 p udd
 j e
 fair y
 f it
 care fully
 cand y
 br own
ut e
th y
J ust
F in
 we ar
 to day
 l ake
 every thing
 b ath
ch ool
 welc ome
 m ad
  Z
e e
ard s
 wor ried
 fill ed
 e ar
 dan ger
 c ow
 b ow
r at
m ing
 gr umpy
i ble
e my
O K
! ”
 sp r
 s chool
 r u
 pie ce
 le ave
 fe w
 b oun
i ch
F rom
 sp in
 sm o
 sh op
 j ar
 hug e
 h ig
 a nt
c ked
a le
 wag ged
 shin ing
 G ra
s y
or s
ed dy
 tw ins
 pus h
 p re
 m ine
 fin ally
 be ach
s et
ck et
 v ill
 li ving
 get ting
 co at
 b an
 M imi
  -
ud e
s w
m e
 w ra
 sing ing
 mon ster
 gre w
 e le
 an sw
p h
oo p
 ro ad
 pr ob
 le g
 ca ught
c ing
am a
P lease
 with out
 to m
 tak ing
 sa ng
 fl ute
 dro pped
 ban an
le m
it ch
 shap es
 re c
 prob lem
 p ower
 hear t
 danger ous
  ve
is k
in ed
c y
 sa me
 pu zz
 p ile
 mo ved
 car rot
 be ll
 b uck
oc ked
es e
en ce
e re
ap e
' ll
 sound s
 real ized
 p ers
 hop ed
um b
f ish
er t
 vill age
 ro b
 pudd le
 p urp
 no se
 j oy
 f ield
 en ough
 cut e
 ar ri
 a ble
is a
f used
c es
 st re
 sa ck
 b en
 R emy
 Em ma

  
ep end
 word s
 m in
 hig her
 bre ad
 B illy
o st
b ow
 wo ke
 sh ook
 rain bow
 pl ane
 n ut
 m ed
 l unch
 gl ass
 duck s
 ch as
 c ave
it y
isk ers
i pped
ell a
ad ow
. ”
 sh y
 ben ch
 L e
ve l
i re
ay on
 to uc
 sho es
 rob ot
 ro pe
 her self
 dri ver
 de er
 cr ayon
 bug s
re ad
n ey
g g
c hes
 st one
 purp le
