{
  "\u0000": 0,
  "\u0001": 1,
  "\u0002": 2,
  "\u0003": 3,
  "\u0004": 4,
  "\u0005": 5,
  "\u0006": 6,
  "\u0007": 7,
  "\b": 8,
  "\t": 9,
  "\n": 10,
  "\u000b": 11,
  "\f": 12,
  "\r": 13,
  "\u000e": 14,
  "\u000f": 15,
  "\u0010": 16,
  "\u0011": 17,
  "\u0012": 18,
  "\u0013": 19,
  "\u0014": 20,
  "\u0015": 21,
  "\u0016": 22,
  "\u0017": 23,
  "\u0018": 24,
  "\u0019": 25,
  "\u001a": 26,
  "\u001b": 27,
  "\u001c": 28,
  "\u001d": 29,
  "\u001e": 30,
  "\u001f": 31,
  " ": 32,
  "!": 33,
  "\"": 34,
  "#": 35,
  "$": 36,
  "%": 37,
  "&": 38,
  "'": 39,
  "(": 40,
  ")": 41,
  "*": 42,
  "+": 43,
  ",": 44,
  "-": 45,
  ".": 46,
  "/": 47,
  "0": 48,
  "1": 49,
  "2": 50,
  "3": 51,
  "4": 52,
  "5": 53,
  "6": 54,
  "7": 55,
  "8": 56,
  "9": 57,
  ":": 58,
  ";": 59,
  "<": 60,
  "=": 61,
  ">": 62,
  "?": 63,
  "@": 64,
  "A": 65,
  "B": 66,
  "C": 67,
  "D": 68,
  "E": 69,
  "F": 70,
  "G": 71,
  "H": 72,
  "I": 73,
  "J": 74,
  "K": 75,
  "L": 76,
  "M": 77,
  "N": 78,
  "O": 79,
  "P": 80,
  "Q": 81,
  "R": 82,
  "S": 83,
  "T": 84,
  "U": 85,
  "V": 86,
  "W": 87,
  "X": 88,
  "Y": 89,
  "Z": 90,
  "[": 91,
  "\\": 92,
  "]": 93,
  "^": 94,
  "_": 95,
  "`": 96,
  "a": 97,
  "b": 98,
  "c": 99,
  "d": 100,
  "e": 101,
  "f": 102,
  "g": 103,
  "h": 104,
  "i": 105,
  "j": 106,
  "k": 107,
  "l": 108,
  "m": 109,
  "n": 110,
  "o": 111,
  "p": 112,
  "q": 113,
  "r": 114,
  "s": 115,
  "t": 116,
  "u": 117,
  "v": 118,
  "w": 119,
  "x": 120,
  "y": 121,
  "z": 122,
  "{": 123,
  "|": 124,
  "}": 125,
  "~": 126,
  "": 127,
  "�": 709,
  "he": 256,
  " t": 257,
  " a": 258,
  " s": 259,
  " w": 260,
  "nd": 261,
  " the": 262,
  "ed": 263,
  " b": 264,
  " to": 265,
  " and": 266,
  " h": 267,
  " f": 268,
  "in": 269,
  " T": 270,
  " wa": 271,
  "re": 272,
  "it": 273,
  "ou": 274,
  " d": 275,
  " l": 276,
  " c": 277,
  " p": 278,
  "ay": 279,
  " m": 280,
  "er": 281,
  " was": 282,
  "om": 283,
  " The": 284,
  " he": 285,
  "is": 286,
  "ar": 287,
  " n": 288,
  "on": 289,
  "ll": 290,
  " sa": 291,
  "im": 292,
  "id": 293,
  " ha": 294,
  " g": 295,
  " S": 296,
  "at": 297,
  "ing": 298,
  "ot": 299,
  "an": 300,
  "en": 301,
  "le": 302,
  "or": 303,
  "ir": 304,
  "am": 305,
  "et": 306,
  " H": 307,
  " it": 308,
  " th": 309,
  " They": 310,
  "ig": 311,
  "il": 312,
  " in": 313,
  " pl": 314,
  " He": 315,
  " \"": 316,
  "ow": 317,
  "ri": 318,
  "ver": 319,
  "ut": 320,
  "es": 321,
  " play": 322,
  " u": 323,
  "ith": 324,
  " with": 325,
  "pp": 326,
  " said": 327,
  " o": 328,
  " y": 329,
  " r": 330,
  "oo": 331,
  " day": 332,
  "On": 333,
  " her": 334,
  "ked": 335,
  " She": 336,
  " I": 337,
  " be": 338,
  " st": 339,
  "ld": 340,
  "ce": 341,
  "ck": 342,
  " his": 343,
  " Tim": 344,
  " e": 345,
  " you": 346,
  "nt": 347,
  "ke": 348,
  " big": 349,
  "very": 350,
  " happ": 351,
  "end": 352,
  "un": 353,
  " on": 354,
  "ve": 355,
  "all": 356,
  " L": 357,
  "ily": 358,
  " they": 359,
  "riend": 360,
  " friend": 361,
  " not": 362,
  " li": 363,
  " do": 364,
  "her": 365,
  " we": 366,
  "ad": 367,
  " want": 368,
  " had": 369,
  " of": 370,
  " up": 371,
  " M": 372,
  "itt": 373,
  " B": 374,
  "st": 375,
  " happy": 376,
  "se": 377,
  "'s": 378,
  "ent": 379,
  "One": 380,
  "ould": 381,
  " that": 382,
  " saw": 383,
  " very": 384,
  " for": 385,
  " mom": 386,
  " sh": 387,
  " so": 388,
  "ittle": 389,
  " she": 390,
  " little": 391,
  "ch": 392,
  " k": 393,
  ".\"": 394,
  "ime": 395,
  "ound": 396,
  " nam": 397,
  " time": 398,
  " there": 399,
  " ne": 400,
  " sm": 401,
  " Lily": 402,
  " named": 403,
  " were": 404,
  "The": 405,
  " wanted": 406,
  " bo": 407,
  " but": 408,
  "!\"": 409,
  " Tom": 410,
  " friends": 411,
  "el": 412,
  "ved": 413,
  " is": 414,
  "ird": 415,
  "out": 416,
  "ht": 417,
  " an": 418,
  " bird": 419,
  "ug": 420,
  " It": 421,
  "al": 422,
  "ome": 423,
  " too": 424,
  " wh": 425,
  "lp": 426,
  "ide": 427,
  "Once": 428,
  " help": 429,
  " went": 430,
  "ake": 431,
  "ue": 432,
  " loo": 433,
  "ry": 434,
  " lo": 435,
  " all": 436,
  "ter": 437,
  " upon": 438,
  " A": 439,
  " j": 440,
  "ore": 441,
  " as": 442,
  " toy": 443,
  " did": 444,
  " fun": 445,
  "get": 446,
  "ra": 447,
  "ind": 448,
  "ill": 449,
  " re": 450,
  "ame": 451,
  " at": 452,
  "gether": 453,
  " ba": 454,
  " se": 455,
  "ur": 456,
  "ly": 457,
  " together": 458,
  " cat": 459,
  " dog": 460,
  " tre": 461,
  "ood": 462,
  "ted": 463,
  " could": 464,
  "ic": 465,
  "ec": 466,
  "ark": 467,
  " ball": 468,
  " their": 469,
  " can": 470,
  " are": 471,
  " ro": 472,
  "way": 473,
  "ax": 474,
  " them": 475,
  " kn": 476,
  "ard": 477,
  "?\"": 478,
  "um": 479,
  " fr": 480,
  " played": 481,
  " le": 482,
  " him": 483,
  " gir": 484,
  " go": 485,
  "'t": 486,
  " girl": 487,
  "hed": 488,
  " sad": 489,
  "hen": 490,
  "other": 491,
  " man": 492,
  "ain": 493,
  "ul": 494,
  "my": 495,
  " have": 496,
  " out": 497,
  " cl": 498,
  " Max": 499,
  " star": 500,
  " tree": 501,
  "hing": 502,
  " boy": 503,
  " Sue": 504,
  " back": 505,
  " loved": 506,
  " found": 507,
  "oug": 508,
  " looked": 509,
  " sc": 510,
  "one": 511,
  "are": 512,
  " sp": 513,
  " park": 514,
  "own": 515,
  "ful": 516,
  " me": 517,
  " like": 518,
  " car": 519,
  " bec": 520,
  "omet": 521,
  " say": 522,
  " liked": 523,
  "side": 524,
  "op": 525,
  "elt": 526,
  " would": 527,
  " la": 528,
  "round": 529,
  " W": 530,
  "ong": 531,
  " see": 532,
  " felt": 533,
  " One": 534,
  "ice": 535,
  " fa": 536,
  " But": 537,
  "You": 538,
  " started": 539,
  " somet": 540,
  " no": 541,
  "ight": 542,
  "ell": 543,
  " Sam": 544,
  " other": 545,
  " asked": 546,
  " make": 547,
  " al": 548,
  "ared": 549,
  " came": 550,
  "ob": 551,
  " small": 552,
  "ought": 553,
  " new": 554,
  "iled": 555,
  " Ben": 556,
  " good": 557,
  "ouse": 558,
  " ag": 559,
  "ings": 560,
  "est": 561,
  "ade": 562,
  " smiled": 563,
  " away": 564,
  "ried": 565,
  " something": 566,
  "ook": 567,
  "ia": 568,
  "uc": 569,
  " br": 570,
  " from": 571,
  "ag": 572,
  " put": 573,
  " made": 574,
  " what": 575,
  "ss": 576,
  " fl": 577,
  " wor": 578,
  " ex": 579,
  " co": 580,
  " playing": 581,
  "ened": 582,
  " find": 583,
  " thought": 584,
  "arn": 585,
  "ach": 586,
  " every": 587,
  " ran": 588,
  " home": 589,
  "dd": 590,
  " wal": 591,
  "ty": 592,
  " J": 593,
  "pot": 594,
  " says": 595,
  " down": 596,
  "ak": 597,
  " laug": 598,
  " some": 599,
  "ile": 600,
  "us": 601,
  " will": 602,
  ",\"": 603,
  " F": 604,
  " box": 605,
  " scared": 606,
  "uck": 607,
  " learn": 608,
  "if": 609,
  " pr": 610,
  " again": 611,
  "ret": 612,
  "ny": 613,
  " house": 614,
  " around": 615,
  " look": 616,
  "ure": 617,
  "oud": 618,
  " toys": 619,
  " bl": 620,
  " fe": 621,
  "ust": 622,
  " You": 623,
  " Spot": 624,
  "ick": 625,
  " took": 626,
  " sun": 627,
  " when": 628,
  " sw": 629,
  "ep": 630,
  "ucy": 631,
  " my": 632,
  " things": 633,
  " your": 634,
  "ble": 635,
  " then": 636,
  "ump": 637,
  " ch": 638,
  " Mia": 639,
  " lived": 640,
  "ie": 641,
  " D": 642,
  "ave": 643,
  "qu": 644,
  " kne": 645,
  " know": 646,
  "pped": 647,
  "oth": 648,
  "ish": 649,
  "ank": 650,
  " lot": 651,
  " who": 652,
  "Th": 653,
  " tried": 654,
  " get": 655,
  "Lily": 656,
  "nder": 657,
  "ap": 658,
  "ited": 659,
  " dec": 660,
  "uch": 661,
  " Lucy": 662,
  " v": 663,
  "ist": 664,
  "as": 665,
  "Tim": 666,
  " pret": 667,
  " knew": 668,
  " got": 669,
  " red": 670,
  " hug": 671,
  " int": 672,
  " many": 673,
  " more": 674,
  " any": 675,
  "use": 676,
  " op": 677,
  " po": 678,
  " pe": 679,
  " ab": 680,
  "ally": 681,
  " Mom": 682,
  "ous": 683,
  "ers": 684,
  "ise": 685,
  " Bob": 686,
  "fter": 687,
  " learned": 688,
  " dad": 689,
  " about": 690,
  "ant": 691,
  " pic": 692,
  " decid": 693,
  " exc": 694,
  " water": 695,
  " care": 696,
  "ause": 697,
  " best": 698,
  "ive": 699,
  " room": 700,
  " decided": 701,
  "They": 702,
  "udd": 703,
  " eat": 704,
  " gre": 705,
  " laughed": 706,
  "ess": 707,
  "ace": 708,
  " jump": 710,
  "ite": 711,
  " became": 712,
  "na": 713,
  " because": 714,
  " So": 715,
  " ke": 716,
  "urp": 717,
  " un": 718,
  "ways": 719,
  " run": 720,
  " both": 721,
  " show": 722,
  " gra": 723,
  " always": 724,
  "ink": 725,
  " this": 726,
  "Tom": 727,
  " into": 728,
  " feel": 729,
  " And": 730,
  "fe": 731,
  "Yes": 732,
  " nice": 733,
  " outside": 734,
  " E": 735,
  "og": 736,
  " one": 737,
  " sl": 738,
  " excited": 739,
  "ull": 740,
  " ho": 741,
  " mo": 742,
  " rock": 743,
  " tow": 744,
  " sor": 745,
  " sk": 746,
  " inside": 747,
  " ta": 748,
  "ara": 749,
  " gave": 750,
  " fast": 751,
  " each": 752,
  " told": 753,
  " am": 754,
  " long": 755,
  " pretty": 756,
  "urpr": 757,
  "our": 758,
  " tr": 759,
  "Wh": 760,
  " surpr": 761,
  "lew": 762,
  " or": 763,
  " under": 764,
  " str": 765,
  " than": 766,
  "imal": 767,
  " animal": 768,
  " need": 769,
  "iny": 770,
  "ged": 771,
  " how": 772,
  " flow": 773,
  " sorry": 774,
  "nna": 775,
  "But": 776,
  " much": 777,
  "ven": 778,
  " hand": 779,
  "ase": 780,
  "etter": 781,
  "ro": 782,
  "urn": 783,
  " try": 784,
  "ised": 785,
  " clo": 786,
  " We": 787,
  "by": 788,
  " old": 789,
  " didn": 790,
  " walk": 791,
  " animals": 792,
  " walked": 793,
  "urt": 794,
  "ack": 795,
  " take": 796,
  " happened": 797,
  " just": 798,
  " near": 799,
  " cle": 800,
  "igh": 801,
  "ched": 802,
  " kind": 803,
  "here": 804,
  "ge": 805,
  " sky": 806,
  " wat": 807,
  "Can": 808,
  "ft": 809,
  " bear": 810,
  "pl": 811,
  " fi": 812,
  " food": 813,
  " its": 814,
  " fly": 815,
  " fish": 816,
  " ca": 817,
  "ff": 818,
  " list": 819,
  " better": 820,
  " dan": 821,
  " us": 822,
  " share": 823,
  "ate": 824,
  " en": 825,
  " let": 826,
  " stor": 827,
  "ine": 828,
  "ion": 829,
  " book": 830,
  "ople": 831,
  " ide": 832,
  "gry": 833,
  " flew": 834,
  " if": 835,
  "ving": 836,
  "ves": 837,
  " idea": 838,
  "\n\n": 839,
  " tw": 840,
  " heard": 841,
  "rom": 842,
  " bug": 843,
  " people": 844,
  " His": 845,
  "pec": 846,
  " Th": 847,
  "ream": 848,
  " don": 849,
  " com": 850,
  " by": 851,
  "bb": 852,
  " lots": 853,
  "more": 854,
  " anymore": 855,
  "ial": 856,
  "Mom": 857,
  " col": 858,
  " careful": 859,
  " spec": 860,
  " special": 861,
  " never": 862,
  "rm": 863,
  "Thank": 864,
  " doll": 865,
  "udden": 866,
  " love": 867,
  " high": 868,
  " turn": 869,
  "ort": 870,
  " qu": 871,
  " mag": 872,
  " hurt": 873,
  " clean": 874,
  "lf": 875,
  "ex": 876,
  " bu": 877,
  " Every": 878,
  "uddenly": 879,
  "oll": 880,
  " color": 881,
  " even": 882,
  " picked": 883,
  " gl": 884,
  " end": 885,
  " cake": 886,
  " hard": 887,
  "Let": 888,
  " cu": 889,
  " bad": 890,
  " far": 891,
  " wind": 892,
  " gr": 893,
  " Sara": 894,
  " thanked": 895,
  " loud": 896,
  " fore": 897,
  " come": 898,
  "em": 899,
  " hugged": 900,
  " proud": 901,
  " opened": 902,
  " door": 903,
  "uff": 904,
  "ild": 905,
  " surprised": 906,
  " K": 907,
  " read": 908,
  " ground": 909,
  " Her": 910,
  "ct": 911,
  " over": 912,
  " after": 913,
  " Then": 914,
  " im": 915,
  "'m": 916,
  " shiny": 917,
  " Amy": 918,
  "pected": 919,
  " tal": 920,
  " fam": 921,
  " town": 922,
  " safe": 923,
  " pa": 924,
  " Anna": 925,
  "ool": 926,
  "expected": 927,
  " unexpected": 928,
  " mak": 929,
  "imb": 930,
  " frog": 931,
  " climb": 932,
  "No": 933,
  " squ": 934,
  " jumped": 935,
  "kay": 936,
  " ever": 937,
  " From": 938,
  " still": 939,
  " call": 940,
  "ummy": 941,
  " way": 942,
  " kid": 943,
  "As": 944,
  "age": 945,
  "itty": 946,
  " When": 947,
  "ber": 948,
  " smile": 949,
  "be": 950,
  "lease": 951,
  " off": 952,
  " te": 953,
  " magic": 954,
  "ock": 955,
  " stick": 956,
  "arden": 957,
  " tra": 958,
  " garden": 959,
  " hat": 960,
  " In": 961,
  " che": 962,
  " par": 963,
  " give": 964,
  "orn": 965,
  " kids": 966,
  "unny": 967,
  " sn": 968,
  "It": 969,
  " unt": 970,
  "iz": 971,
  "and": 972,
  " family": 973,
  " story": 974,
  " lea": 975,
  " dra": 976,
  "aut": 977,
  " until": 978,
  " everyone": 979,
  " should": 980,
  "xt": 981,
  " ra": 982,
  " beaut": 983,
  " listen": 984,
  " next": 985,
  " app": 986,
  "ture": 987,
  " now": 988,
  " P": 989,
  "ane": 990,
  "ough": 991,
  " stay": 992,
  " forest": 993,
  " strong": 994,
  "dy": 995,
  " cry": 996,
  "oy": 997,
  " rain": 998,
  "uffy": 999,
  " blue": 1000,
  " great": 1001,
  "rel": 1002,
  "iful": 1003,
  " open": 1004,
  " beautiful": 1005,
  "iss": 1006,
  " slide": 1007,
  " flowers": 1008,
  " imp": 1009,
  " clos": 1010,
  " R": 1011,
  " happily": 1012,
  " think": 1013,
  "oon": 1014,
  " while": 1015,
  " ask": 1016,
  "pt": 1017,
  "hes": 1018,
  " bro": 1019,
  " showed": 1020,
  " met": 1021,
  " bre": 1022,
  "Now": 1023,
  " soft": 1024,
  " angry": 1025,
  " work": 1026,
  " keep": 1027,
  " called": 1028,
  " Kitty": 1029,
  "He": 1030,
  " has": 1031,
  " truck": 1032,
  " watch": 1033,
  " helped": 1034,
  "so": 1035,
  "aybe": 1036,
  "ma": 1037,
  " also": 1038,
  "When": 1039,
  " picture": 1040,
  " green": 1041,
  "irst": 1042,
  " yummy": 1043,
  " Sally": 1044,
  "ree": 1045,
  " sto": 1046,
  " rem": 1047,
  " place": 1048,
  "ip": 1049,
  " Wh": 1050,
  " where": 1051,
  " hands": 1052,
  "ress": 1053,
  "luffy": 1054,
  "irrel": 1055,
  " Let": 1056,
  "dded": 1057,
  "az": 1058,
  "les": 1059,
  " squirrel": 1060,
  " two": 1061,
  "ary": 1062,
  " warm": 1063,
  " lost": 1064,
  " ate": 1065,
  " game": 1066,
  " bed": 1067,
  "ger": 1068,
  " de": 1069,
  " being": 1070,
  "Look": 1071,
  " fell": 1072,
  "That": 1073,
  " store": 1074,
  " bra": 1075,
  "ies": 1076,
  " hear": 1077,
  "uit": 1078,
  "fore": 1079,
  " cars": 1080,
  "Then": 1081,
  "ired": 1082,
  " wo": 1083,
  "illy": 1084,
  " soon": 1085,
  " C": 1086,
  " catch": 1087,
  " couldn": 1088,
  " Jo": 1089,
  " block": 1090,
  " pull": 1091,
  "self": 1092,
  " noise": 1093,
  "th": 1094,
  " bunny": 1095,
  " stopped": 1096,
  "ud": 1097,
  "What": 1098,
  " talk": 1099,
  " nodded": 1100,
  "ange": 1101,
  " before": 1102,
  " Fluffy": 1103,
  " kept": 1104,
  " dr": 1105,
  " mean": 1106,
  " pus": 1107,
  " ad": 1108,
  " pain": 1109,
  " flower": 1110,
  " boat": 1111,
  "Hi": 1112,
  "We": 1113,
  " wr": 1114,
  "“": 1115,
  "rew": 1116,
  "leep": 1117,
  "ished": 1118,
  " tired": 1119,
  " birds": 1120,
  "gan": 1121,
  " our": 1122,
  " lion": 1123,
  " sat": 1124,
  " ey": 1125,
  " first": 1126,
  "”": 1127,
  " race": 1128,
  " does": 1129,
  "vent": 1130,
  " mess": 1131,
  " Now": 1132,
  " tri": 1133,
  " mouse": 1134,
  " dif": 1135,
  " G": 1136,
  " sound": 1137,
  " thr": 1138,
  "oral": 1139,
  " yell": 1140,
  " others": 1141,
  " fin": 1142,
  "joy": 1143,
  "hn": 1144,
  " having": 1145,
  " face": 1146,
  "thing": 1147,
  " use": 1148,
  " brave": 1149,
  "imes": 1150,
  "Ben": 1151,
  " beh": 1152,
  " bus": 1153,
  " sunny": 1154,
  " pond": 1155,
  "air": 1156,
  "able": 1157,
  " vo": 1158,
  " head": 1159,
  " hole": 1160,
  " import": 1161,
  " Dad": 1162,
  " sand": 1163,
  " right": 1164,
  " wait": 1165,
  " top": 1166,
  " expl": 1167,
  " hop": 1168,
  " flo": 1169,
  "reed": 1170,
  " enjoy": 1171,
  "owl": 1172,
  "ello": 1173,
  "Hello": 1174,
  " moral": 1175,
  " important": 1176,
  " eyes": 1177,
  " curi": 1178,
  " blocks": 1179,
  "ting": 1180,
  " used": 1181,
  " tall": 1182,
  " okay": 1183,
  " duck": 1184,
  "ied": 1185,
  "day": 1186,
  " looking": 1187,
  " cla": 1188,
  "ember": 1189,
  " sing": 1190,
  " curious": 1191,
  " cold": 1192,
  " bag": 1193,
  " swe": 1194,
  "ught": 1195,
  " bright": 1196,
  "ning": 1197,
  " shared": 1198,
  " kit": 1199,
  " hill": 1200,
  " draw": 1201,
  " Do": 1202,
  " sleep": 1203,
  " con": 1204,
  " Can": 1205,
  "chen": 1206,
  " real": 1207,
  " kitchen": 1208,
  "She": 1209,
  " party": 1210,
  " funny": 1211,
  "bbit": 1212,
  "ath": 1213,
  " worked": 1214,
  " making": 1215,
  "fere": 1216,
  " yard": 1217,
  " pick": 1218,
  " jo": 1219,
  " fix": 1220,
  " fire": 1221,
  " differe": 1222,
  "ollow": 1223,
  "oc": 1224,
  "After": 1225,
  " mommy": 1226,
  " mon": 1227,
  " cook": 1228,
  " agreed": 1229,
  " thing": 1230,
  " going": 1231,
  " friendly": 1232,
  "led": 1233,
  "ced": 1234,
  " ice": 1235,
  " pu": 1236,
  " please": 1237,
  "At": 1238,
  " remember": 1239,
  "isy": 1240,
  "icy": 1241,
  " fo": 1242,
  " This": 1243,
  "Wow": 1244,
  " trees": 1245,
  " tast": 1246,
  " “": 1247,
  "ear": 1248,
  " follow": 1249,
  " rest": 1250,
  " dance": 1251,
  " began": 1252,
  " walking": 1253,
  " voice": 1254,
  " leaves": 1255,
  " farm": 1256,
  " different": 1257,
  " own": 1258,
  "bo": 1259,
  " cra": 1260,
  "aring": 1261,
  " turned": 1262,
  " laugh": 1263,
  " grass": 1264,
  " gi": 1265,
  " fav": 1266,
  "olly": 1267,
  " stop": 1268,
  " here": 1269,
  " forg": 1270,
  " closer": 1271,
  " z": 1272,
  "ndma": 1273,
  "Sam": 1274,
  " tell": 1275,
  "’": 1276,
  "oom": 1277,
  "ins": 1278,
  " surprise": 1279,
  "Don": 1280,
  " hid": 1281,
  " feeling": 1282,
  " colors": 1283,
  "kes": 1284,
  "Max": 1285,
  " pap": 1286,
  " needed": 1287,
  " Fin": 1288,
  "ious": 1289,
  " shout": 1290,
  " behind": 1291,
  "Why": 1292,
  " watched": 1293,
  " ri": 1294,
  " As": 1295,
  "Anna": 1296,
  " swing": 1297,
  " move": 1298,
  " fruit": 1299,
  "Sara": 1300,
  " worry": 1301,
  " floor": 1302,
  " song": 1303,
  "ign": 1304,
  " tail": 1305,
  " sees": 1306,
  " lad": 1307,
  " dis": 1308,
  "ached": 1309,
  " table": 1310,
  "ila": 1311,
  "Suddenly": 1312,
  " wood": 1313,
  " tak": 1314,
  " sweet": 1315,
  " rabbit": 1316,
  " hot": 1317,
  " dark": 1318,
  " cried": 1319,
  "zy": 1320,
  "orite": 1321,
  "ng": 1322,
  " ready": 1323,
  " favorite": 1324,
  " cut": 1325,
  " repl": 1326,
  " night": 1327,
  " roll": 1328,
  " ac": 1329,
  "uddy": 1330,
  "ect": 1331,
  " prom": 1332,
  "ike": 1333,
  " gone": 1334,
  "bye": 1335,
  " pretend": 1336,
  " hun": 1337,
  " full": 1338,
  " cre": 1339,
  " Mr": 1340,
  " Jack": 1341,
  "ered": 1342,
  " looks": 1343,
  " another": 1344,
  " advent": 1345,
  "ail": 1346,
  " hold": 1347,
  " yellow": 1348,
  " swim": 1349,
  " moment": 1350,
  " Jane": 1351,
  "ott": 1352,
  " touch": 1353,
  "ken": 1354,
  " reached": 1355,
  " dress": 1356,
  " dir": 1357,
  " sho": 1358,
  " plan": 1359,
  " cloud": 1360,
  " bel": 1361,
  "ather": 1362,
  " That": 1363,
  " paper": 1364,
  " helping": 1365,
  " hair": 1366,
  " butter": 1367,
  "Sue": 1368,
  "aisy": 1369,
  " Bobo": 1370,
  "So": 1371,
  " broken": 1372,
  " brother": 1373,
  " books": 1374,
  " stuck": 1375,
  " only": 1376,
  " All": 1377,
  "ount": 1378,
  "iced": 1379,
  " smell": 1380,
  " quick": 1381,
  " close": 1382,
  " cream": 1383,
  " amaz": 1384,
  "ppy": 1385,
  "ation": 1386,
  " thank": 1387,
  " less": 1388,
  " Suddenly": 1389,
  " hungry": 1390,
  " child": 1391,
  "man": 1392,
  "cle": 1393,
  " replied": 1394,
  " mat": 1395,
  " break": 1396,
  "where": 1397,
  "ely": 1398,
  " Everyone": 1399,
  "key": 1400,
  "av": 1401,
  "Jo": 1402,
  " makes": 1403,
  " glad": 1404,
  "red": 1405,
  "ient": 1406,
  " snow": 1407,
  " adventure": 1408,
  " wonder": 1409,
  " reach": 1410,
  " mar": 1411,
  " goodbye": 1412,
  " wet": 1413,
  " ste": 1414,
  " sometimes": 1415,
  " mus": 1416,
  " doing": 1417,
  " del": 1418,
  " climbed": 1419,
  " cr": 1420,
  " cool": 1421,
  " alone": 1422,
  "asure": 1423,
  " cast": 1424,
  "ub": 1425,
  " pulled": 1426,
  " gent": 1427,
  " baby": 1428,
  "ucky": 1429,
  "que": 1430,
  "ac": 1431,
  " trying": 1432,
  " coming": 1433,
  "nts": 1434,
  " running": 1435,
  " per": 1436,
  " listened": 1437,
  " clapped": 1438,
  "ol": 1439,
  " swam": 1440,
  " slow": 1441,
  " pen": 1442,
  " fair": 1443,
  " colorful": 1444,
  " why": 1445,
  " tiny": 1446,
  "oup": 1447,
  "ater": 1448,
  " buy": 1449,
  " ar": 1450,
  " Buddy": 1451,
  "ass": 1452,
  " might": 1453,
  " Timmy": 1454,
  "bbed": 1455,
  "ast": 1456,
  "Okay": 1457,
  " train": 1458,
  " fall": 1459,
  " wall": 1460,
  "Mia": 1461,
  " quickly": 1462,
  " gif": 1463,
  " dream": 1464,
  " dri": 1465,
  " bott": 1466,
  "oney": 1467,
  "ix": 1468,
  " underst": 1469,
  " name": 1470,
  " held": 1471,
  "outh": 1472,
  "avy": 1473,
  " waved": 1474,
  " tower": 1475,
  " threw": 1476,
  " mouth": 1477,
  " land": 1478,
  " grow": 1479,
  " apple": 1480,
  "pe": 1481,
  " bit": 1482,
  "Her": 1483,
  " left": 1484,
  " butterf": 1485,
  " been": 1486,
  "sh": 1487,
  " noticed": 1488,
  " lesson": 1489,
  " enjoyed": 1490,
  " Mommy": 1491,
  " window": 1492,
  " set": 1493,
  " din": 1494,
  " arm": 1495,
  "ctor": 1496,
  "ames": 1497,
  " miss": 1498,
  " fight": 1499,
  " balloon": 1500,
  " After": 1501,
  "ries": 1502,
  " shouted": 1503,
  " pi": 1504,
  " light": 1505,
  " done": 1506,
  "This": 1507,
  " word": 1508,
  " job": 1509,
  " anything": 1510,
  " Daisy": 1511,
  "der": 1512,
  " wag": 1513,
  " win": 1514,
  " spot": 1515,
  " sure": 1516,
  " pushed": 1517,
  " build": 1518,
  "room": 1519,
  "In": 1520,
  " lady": 1521,
  " join": 1522,
  " cup": 1523,
  " seen": 1524,
  " key": 1525,
  " dro": 1526,
  " likes": 1527,
  " prin": 1528,
  " air": 1529,
  "Maybe": 1530,
  "'re": 1531,
  " woods": 1532,
  " through": 1533,
  " pictures": 1534,
  " ju": 1535,
  "ster": 1536,
  " scary": 1537,
  " danced": 1538,
  "ower": 1539,
  " perf": 1540,
  " music": 1541,
  " castle": 1542,
  " Joe": 1543,
  " grabbed": 1544,
  " creat": 1545,
  " comp": 1546,
  " paint": 1547,
  " cont": 1548,
  "art": 1549,
  " pat": 1550,
  " note": 1551,
  " mix": 1552,
  " followed": 1553,
  " blew": 1554,
  " chair": 1555,
  " spl": 1556,
  " gift": 1557,
  " explore": 1558,
  " Maybe": 1559,
  "less": 1560,
  "Lucy": 1561,
  " wrong": 1562,
  " must": 1563,
  " heavy": 1564,
  " bigger": 1565,
  " There": 1566,
  "rot": 1567,
  "ner": 1568,
  "Oh": 1569,
  "Do": 1570,
  " butterfly": 1571,
  "ash": 1572,
  " wants": 1573,
  " silly": 1574,
  " nest": 1575,
  " monkey": 1576,
  " hopped": 1577,
  " remembered": 1578,
  " pie": 1579,
  " won": 1580,
  " sit": 1581,
  " grandma": 1582,
  "zz": 1583,
  " treat": 1584,
  " stayed": 1585,
  " Lila": 1586,
  " ride": 1587,
  " What": 1588,
  "lc": 1589,
  " world": 1590,
  " turns": 1591,
  " start": 1592,
  " shap": 1593,
  " sis": 1594,
  " rel": 1595,
  " John": 1596,
  "John": 1597,
  " white": 1598,
  " wished": 1599,
  " sec": 1600,
  " poin": 1601,
  " games": 1602,
  " O": 1603,
  " waited": 1604,
  " wise": 1605,
  " talked": 1606,
  " sign": 1607,
  " round": 1608,
  " fill": 1609,
  " everywhere": 1610,
  " cand": 1611,
  " bar": 1612,
  "up": 1613,
  "cks": 1614,
  "ance": 1615,
  " tight": 1616,
  " sister": 1617,
  " someone": 1618,
  " pink": 1619,
  " leaf": 1620,
  " pol": 1621,
  " broke": 1622,
  " brought": 1623,
  " asks": 1624,
  " Soon": 1625,
  " owl": 1626,
  "onely": 1627,
  " treasure": 1628,
  " thinks": 1629,
  " sharing": 1630,
  " sna": 1631,
  " lonely": 1632,
  " bike": 1633,
  " plant": 1634,
  " pot": 1635,
  " pare": 1636,
  "ze": 1637,
  " year": 1638,
  " three": 1639,
  " rocks": 1640,
  " himself": 1641,
  " giant": 1642,
  "ey": 1643,
  "board": 1644,
  " hit": 1645,
  " Inside": 1646,
  "ield": 1647,
  "ued": 1648,
  "ead": 1649,
  "ang": 1650,
  " vis": 1651,
  " understand": 1652,
  " Jen": 1653,
  "ton": 1654,
  "Bob": 1655,
  " paw": 1656,
  " pig": 1657,
  " bor": 1658,
  "row": 1659,
  "lla": 1660,
  "ipp": 1661,
  "amp": 1662,
  " sea": 1663,
  " soup": 1664,
  " mother": 1665,
  " flying": 1666,
  "os": 1667,
  "itten": 1668,
  "ized": 1669,
  "iet": 1670,
  "bble": 1671,
  " throw": 1672,
  " res": 1673,
  " promised": 1674,
  " gu": 1675,
  " dirty": 1676,
  " black": 1677,
  " bite": 1678,
  "used": 1679,
  "mb": 1680,
  "itting": 1681,
  " quiet": 1682,
  " ph": 1683,
  " orange": 1684,
  " forgot": 1685,
  " faster": 1686,
  " dolls": 1687,
  " dinner": 1688,
  " crying": 1689,
  " bee": 1690,
  "orm": 1691,
  "ord": 1692,
  " el": 1693,
  " drink": 1694,
  " Momo": 1695,
  " Bl": 1696,
  "ully": 1697,
  "ren": 1698,
  "eces": 1699,
  " strange": 1700,
  " pieces": 1701,
  " parents": 1702,
  " happen": 1703,
  " else": 1704,
  " eating": 1705,
  " delic": 1706,
  " dry": 1707,
  "His": 1708,
  "\".": 1709,
  " wish": 1710,
  " secret": 1711,
  " rolled": 1712,
  "ross": 1713,
  "oun": 1714,
  "othes": 1715,
  "fully": 1716,
  " runs": 1717,
  " deep": 1718,
  " clothes": 1719,
  " bas": 1720,
  "ket": 1721,
  " spicy": 1722,
  " hide": 1723,
  " free": 1724,
  " basket": 1725,
  " scream": 1726,
  " contin": 1727,
  " button": 1728,
  " bottle": 1729,
  " Tommy": 1730,
  "umpy": 1731,
  " smiles": 1732,
  " shin": 1733,
  " really": 1734,
  " gentle": 1735,
  " fox": 1736,
  " drag": 1737,
  "cess": 1738,
  " whe": 1739,
  " visit": 1740,
  " smart": 1741,
  " shr": 1742,
  " pet": 1743,
  " nap": 1744,
  " well": 1745,
  " welc": 1746,
  " tasty": 1747,
  " puppy": 1748,
  " mail": 1749,
  " juice": 1750,
  " blank": 1751,
  "Spot": 1752,
  " sal": 1753,
  " laughing": 1754,
  " doctor": 1755,
  " blanket": 1756,
  " To": 1757,
  " At": 1758,
  "iver": 1759,
  "aught": 1760,
  "While": 1761,
  " stand": 1762,
  " sitting": 1763,
  " fur": 1764,
  " continued": 1765,
  " bran": 1766,
  " bowl": 1767,
  " apples": 1768,
  " shell": 1769,
  " closed": 1770,
  "imi": 1771,
  "gy": 1772,
  " yes": 1773,
  " wings": 1774,
  " swings": 1775,
  " sear": 1776,
  " side": 1777,
  " finished": 1778,
  " farmer": 1779,
  " count": 1780,
  " Blue": 1781,
  " perfect": 1782,
  " mum": 1783,
  " king": 1784,
  " dragon": 1785,
  " children": 1786,
  " corn": 1787,
  " Em": 1788,
  "unch": 1789,
  "stead": 1790,
  "pping": 1791,
  "orning": 1792,
  "co": 1793,
  " pass": 1794,
  " morning": 1795,
  " kite": 1796,
  " kiss": 1797,
  " att": 1798,
  " amazing": 1799,
  "ises": 1800,
  " river": 1801,
  " pudd": 1802,
  " je": 1803,
  " fairy": 1804,
  " fit": 1805,
  " carefully": 1806,
  " candy": 1807,
  " brown": 1808,
  "ute": 1809,
  "thy": 1810,
  "Just": 1811,
  "Fin": 1812,
  " wear": 1813,
  " today": 1814,
  " lake": 1815,
  " everything": 1816,
  " bath": 1817,
  "chool": 1818,
  " welcome": 1819,
  " mad": 1820,
  " Z": 1821,
  "ee": 1822,
  "ards": 1823,
  " worried": 1824,
  " filled": 1825,
  " ear": 1826,
  " danger": 1827,
  " cow": 1828,
  " bow": 1829,
  "rat": 1830,
  "ming": 1831,
  " grumpy": 1832,
  "ible": 1833,
  "emy": 1834,
  "OK": 1835,
  "!”": 1836,
  " spr": 1837,
  " school": 1838,
  " ru": 1839,
  " piece": 1840,
  " leave": 1841,
  " few": 1842,
  " boun": 1843,
  "ich": 1844,
  "From": 1845,
  " spin": 1846,
  " smo": 1847,
  " shop": 1848,
  " jar": 1849,
  " huge": 1850,
  " hig": 1851,
  " ant": 1852,
  "cked": 1853,
  "ale": 1854,
  " wagged": 1855,
  " shining": 1856,
  " Gra": 1857,
  "sy": 1858,
  "ors": 1859,
  "eddy": 1860,
  " twins": 1861,
  " push": 1862,
  " pre": 1863,
  " mine": 1864,
  " finally": 1865,
  " beach": 1866,
  "set": 1867,
  "cket": 1868,
  " vill": 1869,
  " living": 1870,
  " getting": 1871,
  " coat": 1872,
  " ban": 1873,
  " Mimi": 1874,
  " -": 1875,
  "ude": 1876,
  "sw": 1877,
  "me": 1878,
  " wra": 1879,
  " singing": 1880,
  " monster": 1881,
  " grew": 1882,
  " ele": 1883,
  " answ": 1884,
  "ph": 1885,
  "oop": 1886,
  " road": 1887,
  " prob": 1888,
  " leg": 1889,
  " caught": 1890,
  "cing": 1891,
  "ama": 1892,
  "Please": 1893,
  " without": 1894,
  " tom": 1895,
  " taking": 1896,
  " sang": 1897,
  " flute": 1898,
  " dropped": 1899,
  " banan": 1900,
  "lem": 1901,
  "itch": 1902,
  " shapes": 1903,
  " rec": 1904,
  " problem": 1905,
  " power": 1906,
  " heart": 1907,
  " dangerous": 1908,
  " ve": 1909,
  "isk": 1910,
  "ined": 1911,
  "cy": 1912,
  " same": 1913,
  " puzz": 1914,
  " pile": 1915,
  " moved": 1916,
  " carrot": 1917,
  " bell": 1918,
  " buck": 1919,
  "ocked": 1920,
  "ese": 1921,
  "ence": 1922,
  "ere": 1923,
  "ape": 1924,
  "'ll": 1925,
  " sounds": 1926,
  " realized": 1927,
  " pers": 1928,
  " hoped": 1929,
  "umb": 1930,
  "fish": 1931,
  "ert": 1932,
  " village": 1933,
  " rob": 1934,
  " puddle": 1935,
  " purp": 1936,
  " nose": 1937,
  " joy": 1938,
  " field": 1939,
  " enough": 1940,
  " cute": 1941,
  " arri": 1942,
  " able": 1943,
  "isa": 1944,
  "fused": 1945,
  "ces": 1946,
  " stre": 1947,
  " sack": 1948,
  " ben": 1949,
  " Remy": 1950,
  " Emma": 1951,
  "\n ": 1952,
  "epend": 1953,
  " words": 1954,
  " min": 1955,
  " higher": 1956,
  " bread": 1957,
  " Billy": 1958,
  "ost": 1959,
  "bow": 1960,
  " woke": 1961,
  " shook": 1962,
  " rainbow": 1963,
  " plane": 1964,
  " nut": 1965,
  " med": 1966,
  " lunch": 1967,
  " glass": 1968,
  " ducks": 1969,
  " chas": 1970,
  " cave": 1971,
  "ity": 1972,
  "iskers": 1973,
  "ipped": 1974,
  "ella": 1975,
  "adow": 1976,
  ".”": 1977,
  " shy": 1978,
  " bench": 1979,
  " Le": 1980,
  "vel": 1981,
  "ire": 1982,
  "ayon": 1983,
  " touc": 1984,
  " shoes": 1985,
  " robot": 1986,
  " rope": 1987,
  " herself": 1988,
  " driver": 1989,
  " deer": 1990,
  " crayon": 1991,
  " bugs": 1992,
  "read": 1993,
  "ney": 1994,
  "gg": 1995,
  "ches": 1996,
  " stone": 1997,
  " purple": 1998,
  "<|endoftext|>": 1999
}